0.001048390637151897
0.00042641328764148057
0.0006547776865772903
0.0005385841941460967
0.0006521479808725417
0.0009285805863328278
6.391450006049126e-05
0.0001368303201161325
0.0004712750669568777
0.000559596752282232
0.00016051506099756807
0.0008442155085504055
0.0004766180063597858
0.0003130983095616102
0.00025449428358115256
0.00019382094615139067
0.0002593261015135795
0.0006021126755513251
0.00019301842257846147
0.00019569513096939772
0.0005849053268320858
0.0004775098932441324
0.00015789207827765495
0.0004645485314540565
0.0011521715205162764
0.00046094716526567936
0.001372360740788281
0.000637860328424722
0.0007633651839569211
0.0005258452147245407
0.00038226621109060943
0.0009497479186393321
